{
  "version": 1,
  "algorithm": "bpe",
  "config": {
    "target_vocab_size": 2000,
    "min_frequency": 2,
    "lowercase": false,
    "continuation_prefix": "##"
  },
  "vocabulary": {
    "<PAD>": 0,
    "<UNK>": 1,
    "<BOS>": 2,
    "<EOS>": 3,
    "a": 4,
    "b": 5,
    "c": 6,
    "d": 7,
    "e": 8,
    "f": 9,
    "g": 10,
    "h": 11,
    "i": 12,
    "j": 13,
    "k": 14,
    "l": 15,
    "m": 16,
    "n": 17,
    "o": 18,
    "p": 19,
    "q": 20,
    "r": 21,
    "s": 22,
    "t": 23,
    "u": 24,
    "v": 25,
    "w": 26,
    "x": 27,
    "y": 28,
    "z": 29,
    "A": 30,
    "B": 31,
    "C": 32,
    "D": 33,
    "E": 34,
    "F": 35,
    "G": 36,
    "H": 37,
    "I": 38,
    "J": 39,
    "K": 40,
    "L": 41,
    "M": 42,
    "N": 43,
    "O": 44,
    "P": 45,
    "Q": 46,
    "R": 47,
    "S": 48,
    "T": 49,
    "U": 50,
    "V": 51,
    "W": 52,
    "X": 53,
    "Y": 54,
    "Z": 55,
    "0": 56,
    "1": 57,
    "2": 58,
    "3": 59,
    "4": 60,
    "5": 61,
    "6": 62,
    "7": 63,
    "8": 64,
    "9": 65,
    "!": 66,
    "\"": 67,
    "#": 68,
    "$": 69,
    "%": 70,
    "&": 71,
    "'": 72,
    "(": 73,
    ")": 74,
    "*": 75,
    "+": 76,
    ",": 77,
    "-": 78,
    ".": 79,
    "/": 80,
    ":": 81,
    ";": 82,
    "<": 83,
    "=": 84,
    ">": 85,
    "?": 86,
    "@": 87,
    "[": 88,
    "\\": 89,
    "]": 90,
    "^": 91,
    "_": 92,
    "`": 93,
    "{": 94,
    "|": 95,
    "}": 96,
    "~": 97,
    "\u0013": 98,
    "": 99,
    "": 100,
    "¡": 101,
    "¢": 102,
    "§": 103,
    "©": 104,
    "­": 105,
    "®": 106,
    "±": 107,
    "¶": 108,
    "·": 109,
    "É": 110,
    "Ö": 111,
    "×": 112,
    "á": 113,
    "ä": 114,
    "ç": 115,
    "é": 116,
    "ö": 117,
    "÷": 118,
    "ü": 119,
    "ˆ": 120,
    "́": 121,
    "̃": 122,
    "̄": 123,
    "̸": 124,
    "α": 125,
    "β": 126,
    "γ": 127,
    "δ": 128,
    "ε": 129,
    "θ": 130,
    "μ": 131,
    "π": 132,
    "σ": 133,
    "τ": 134,
    "φ": 135,
    "ω": 136,
    "–": 137,
    "—": 138,
    "“": 139,
    "”": 140,
    "†": 141,
    "‡": 142,
    "•": 143,
    "′": 144,
    "›": 145,
    "⁄": 146,
    "⃝": 147,
    "→": 148,
    "↕": 149,
    "∂": 150,
    "∑": 151,
    "−": 152,
    "∗": 153,
    "√": 154,
    "∝": 155,
    "∞": 156,
    "∫": 157,
    "∼": 158,
    "≈": 159,
    "≡": 160,
    "≤": 161,
    "≥": 162,
    "≪": 163,
    "⎛": 164,
    "⎝": 165,
    "⎞": 166,
    "⎠": 167,
    "⎡": 168,
    "⎢": 169,
    "⎣": 170,
    "⎤": 171,
    "⎥": 172,
    "⎦": 173,
    "⎧": 174,
    "⎨": 175,
    "⎩": 176,
    "⎪": 177,
    "⎫": 178,
    "⎬": 179,
    "⎭": 180,
    "⏐": 181,
    "■": 182,
    "❏": 183,
    "❒": 184,
    "❖": 185,
    "➔": 186,
    "➜": 187,
    "➝": 188,
    "➡": 189,
    "➢": 190,
    "": 191,
    "": 192,
    "": 193,
    "": 194,
    "": 195,
    "": 196,
    "in": 197,
    "th": 198,
    "an": 199,
    "er": 200,
    "or": 201,
    "on": 202,
    "en": 203,
    "ti": 204,
    "the": 205,
    "al": 206,
    "of": 207,
    "ar": 208,
    "ing": 209,
    "re": 210,
    "to": 211,
    "ro": 212,
    "and": 213,
    "em": 214,
    "ed": 215,
    "es": 216,
    "st": 217,
    "at": 218,
    "ou": 219,
    "is": 220,
    "ent": 221,
    "ec": 222,
    "tion": 223,
    "it": 224,
    "ac": 225,
    "as": 226,
    "ic": 227,
    "pl": 228,
    "du": 229,
    "pro": 230,
    "el": 231,
    "ag": 232,
    "us": 233,
    "vent": 234,
    "co": 235,
    "ventor": 236,
    "ventory": 237,
    "il": 238,
    "ch": 239,
    "duc": 240,
    "Th": 241,
    "In": 242,
    "ur": 243,
    "qu": 244,
    "ation": 245,
    "su": 246,
    "ow": 247,
    "et": 248,
    "for": 249,
    "si": 250,
    "ab": 251,
    "ev": 252,
    "un": 253,
    "ol": 254,
    "that": 255,
    "ly": 256,
    "me": 257,
    "per": 258,
    "ex": 259,
    "le": 260,
    "con": 261,
    "ve": 262,
    "are": 263,
    "ap": 264,
    "di": 265,
    "ith": 266,
    "19": 267,
    "wh": 268,
    "be": 269,
    "anag": 270,
    "inventory": 271,
    "ord": 272,
    "sh": 273,
    "with": 274,
    "ri": 275,
    "ement": 276,
    "produc": 277,
    "mp": 278,
    "00": 279,
    "ul": 280,
    "The": 281,
    "tic": 282,
    "Inventory": 283,
    "ad": 284,
    "ems": 285,
    "od": 286,
    "anagement": 287,
    "emand": 288,
    "am": 289,
    "ers": 290,
    "ts": 291,
    "ear": 292,
    "ate": 293,
    "Pro": 294,
    "vi": 295,
    "lo": 296,
    "toc": 297,
    "ity": 298,
    "po": 299,
    "ig": 300,
    "__": 301,
    "oun": 302,
    "ess": 303,
    "ce": 304,
    "ha": 305,
    "ma": 306,
    "ter": 307,
    "im": 308,
    "ver": 309,
    "age": 310,
    "demand": 311,
    "time": 312,
    "ment": 313,
    "stoc": 314,
    "no": 315,
    "ppl": 316,
    "ish": 317,
    "ere": 318,
    "alu": 319,
    "if": 320,
    "yst": 321,
    "bu": 322,
    "um": 323,
    "Produc": 324,
    "ta": 325,
    "evel": 326,
    "act": 327,
    "par": 328,
    "oul": 329,
    "ef": 330,
    "tr": 331,
    "able": 332,
    "res": 333,
    "ies": 334,
    "10": 335,
    "se": 336,
    "Management": 337,
    "ations": 338,
    "order": 339,
    "its": 340,
    "can": 341,
    "oth": 342,
    "ould": 343,
    "by": 344,
    "items": 345,
    "valu": 346,
    "sts": 347,
    "comp": 348,
    "this": 349,
    "iz": 350,
    "eg": 351,
    "tim": 352,
    "eca": 353,
    "ated": 354,
    "fro": 355,
    "eri": 356,
    "syst": 357,
    "enti": 358,
    "mo": 359,
    "pec": 360,
    "cost": 361,
    "ally": 362,
    "tro": 363,
    "199": 364,
    "ati": 365,
    "ill": 366,
    "als": 367,
    "fi": 368,
    "we": 369,
    "you": 370,
    "anti": 371,
    "not": 372,
    "str": 373,
    "any": 374,
    "cus": 375,
    "from": 376,
    "ea": 377,
    "all": 378,
    "pply": 379,
    "ort": 380,
    "inc": 381,
    "ents": 382,
    "coun": 383,
    "pr": 384,
    "ure": 385,
    "op": 386,
    "com": 387,
    "oc": 388,
    "ted": 389,
    "min": 390,
    "ann": 391,
    "id": 392,
    "ty": 393,
    "item": 394,
    "use": 395,
    "ach": 396,
    "dis": 397,
    "usin": 398,
    "qui": 399,
    "ple": 400,
    "plen": 401,
    "stock": 402,
    "ase": 403,
    "peri": 404,
    "low": 405,
    "one": 406,
    "will": 407,
    "plenish": 408,
    "have": 409,
    "our": 410,
    "quanti": 411,
    "form": 412,
    "istic": 413,
    "so": 414,
    "fact": 415,
    "level": 416,
    "tions": 417,
    "sa": 418,
    "lu": 419,
    "pen": 420,
    "ods": 421,
    "ely": 422,
    "dec": 423,
    "ang": 424,
    "isi": 425,
    "ting": 426,
    "____": 427,
    "busin": 428,
    "ore": 429,
    "ant": 430,
    "ice": 431,
    "costs": 432,
    "Product": 433,
    "out": 434,
    "management": 435,
    "ne": 436,
    "value": 437,
    "bl": 438,
    "mat": 439,
    "ot": 440,
    "Wh": 441,
    "Ch": 442,
    "rec": 443,
    "ff": 444,
    "ead": 445,
    "300": 446,
    "product": 447,
    "wor": 448,
    "king": 449,
    "der": 450,
    "cur": 451,
    "appro": 452,
    "198": 453,
    "var": 454,
    "tom": 455,
    "ties": 456,
    "replenish": 457,
    "de": 458,
    "fin": 459,
    "20": 460,
    "erv": 461,
    "ast": 462,
    "stri": 463,
    "iv": 464,
    "ra": 465,
    "other": 466,
    "om": 467,
    "ech": 468,
    "og": 469,
    "igh": 470,
    "production": 471,
    "sting": 472,
    "ance": 473,
    "ility": 474,
    "rou": 475,
    "arg": 476,
    "system": 477,
    "Su": 478,
    "rel": 479,
    "proc": 480,
    "odel": 481,
    "go": 482,
    "more": 483,
    "ks": 484,
    "ying": 485,
    "trol": 486,
    "thes": 487,
    "hou": 488,
    "materi": 489,
    "anu": 490,
    "anning": 491,
    "tive": 492,
    "tw": 493,
    "ber": 494,
    "11": 495,
    "num": 496,
    "This": 497,
    "ence": 498,
    "Con": 499,
    "used": 500,
    "supply": 501,
    "yp": 502,
    "units": 503,
    "ments": 504,
    "ke": 505,
    "ding": 506,
    "ain": 507,
    "det": 508,
    "requi": 509,
    "loc": 510,
    "ail": 511,
    "tot": 512,
    "serv": 513,
    "int": 514,
    "ass": 515,
    "ob": 516,
    "has": 517,
    "ection": 518,
    "business": 519,
    "whic": 520,
    "should": 521,
    "pre": 522,
    "ors": 523,
    "quantity": 524,
    "vari": 525,
    "mon": 526,
    "li": 527,
    "each": 528,
    "bas": 529,
    "Equ": 530,
    "replenishment": 531,
    "stribu": 532,
    "earch": 533,
    "arehou": 534,
    "12": 535,
    "ical": 536,
    "Res": 537,
    "custom": 538,
    "EO": 539,
    "fir": 540,
    "ut": 541,
    "reas": 542,
    "dat": 543,
    "hi": 544,
    "Ex": 545,
    "ys": 546,
    "ust": 547,
    "sal": 548,
    "50": 549,
    "Production": 550,
    "unit": 551,
    "model": 552,
    "decisi": 553,
    "ss": 554,
    "13": 555,
    "which": 556,
    "when": 557,
    "mar": 558,
    "foreca": 559,
    "ay": 560,
    "Oper": 561,
    "sim": 562,
    "where": 563,
    "ermin": 564,
    "Co": 565,
    "oper": 566,
    "meth": 567,
    "yc": 568,
    "enc": 569,
    "year": 570,
    "red": 571,
    "own": 572,
    "sol": 573,
    "pres": 574,
    "imp": 575,
    "total": 576,
    "est": 577,
    "pos": 578,
    "may": 579,
    "ety": 580,
    "eff": 581,
    "fol": 582,
    "distribu": 583,
    "sel": 584,
    "ous": 585,
    "nal": 586,
    "ir": 587,
    "art": 588,
    "ans": 589,
    "also": 590,
    "anufact": 591,
    "spec": 592,
    "gh": 593,
    "ci": 594,
    "diff": 595,
    "ew": 596,
    "control": 597,
    "bet": 598,
    "15": 599,
    "ther": 600,
    "av": 601,
    "EOQ": 602,
    "exam": 603,
    "echn": 604,
    "ational": 605,
    "Research": 606,
    "ling": 607,
    "ons": 608,
    "up": 609,
    "period": 610,
    "ateg": 611,
    "products": 612,
    "chang": 613,
    "follow": 614,
    "stor": 615,
    "lead": 616,
    "would": 617,
    "sul": 618,
    "pur": 619,
    "car": 620,
    "54": 621,
    "It": 622,
    "ine": 623,
    "ever": 624,
    "arehouse": 625,
    "ves": 626,
    "ality": 627,
    "number": 628,
    "fac": 629,
    "siz": 630,
    "ten": 631,
    "probl": 632,
    "plac": 633,
    "apter": 634,
    "St": 635,
    "ins": 636,
    "two": 637,
    "process": 638,
    "such": 639,
    "consi": 640,
    "determin": 641,
    "there": 642,
    "than": 643,
    "count": 644,
    "ip": 645,
    "Demand": 646,
    "anufactur": 647,
    "Supply": 648,
    "inter": 649,
    "ability": 650,
    "ulti": 651,
    "29": 652,
    "they": 653,
    "ating": 654,
    "Qu": 655,
    "por": 656,
    "Equation": 657,
    "inv": 658,
    "bo": 659,
    "ual": 660,
    "manag": 661,
    "des": 662,
    "point": 663,
    "giv": 664,
    "esses": 665,
    "inclu": 666,
    "data": 667,
    "these": 668,
    "systems": 669,
    "materials": 670,
    "ey": 671,
    "resul": 672,
    "istics": 673,
    "Un": 674,
    "Ess": 675,
    "Essenti": 676,
    "tain": 677,
    "cer": 678,
    "ru": 679,
    "________": 680,
    "Re": 681,
    "fore": 682,
    "ee": 683,
    "cap": 684,
    "ble": 685,
    "Essentials": 686,
    "provi": 687,
    "cedu": 688,
    "ycle": 689,
    "SK": 690,
    "Jour": 691,
    "typ": 692,
    "ization": 693,
    "ving": 694,
    "but": 695,
    "SKU": 696,
    "IN": 697,
    "Part": 698,
    "goods": 699,
    "their": 700,
    "econ": 701,
    "end": 702,
    "sales": 703,
    "ard": 704,
    "ecast": 705,
    "formation": 706,
    "For": 707,
    "pri": 708,
    "Fig": 709,
    "service": 710,
    "sum": 711,
    "ph": 712,
    "inventor": 713,
    "ds": 714,
    "case": 715,
    "throu": 716,
    "Cha": 717,
    "verage": 718,
    "planning": 719,
    "differ": 720,
    "betwe": 721,
    "Not": 722,
    "Journal": 723,
    "suppl": 724,
    "example": 725,
    "ener": 726,
    "edu": 727,
    "If": 728,
    "your": 729,
    "procedu": 730,
    "cont": 731,
    "Al": 732,
    "03": 733,
    "000": 734,
    "reduc": 735,
    "25": 736,
    "ticul": 737,
    "only": 738,
    "into": 739,
    "ici": 740,
    "using": 741,
    "olog": 742,
    "ative": 743,
    "02": 744,
    "anal": 745,
    "reg": 746,
    "must": 747,
    "compl": 748,
    "ates": 749,
    "ary": 750,
    "mark": 751,
    "pe": 752,
    "chedu": 753,
    "kn": 754,
    "chain": 755,
    "14": 756,
    "then": 757,
    "err": 758,
    "comm": 759,
    "warehouse": 760,
    "forecast": 761,
    "manufactur": 762,
    "discus": 763,
    "ect": 764,
    "hel": 765,
    "ecause": 766,
    "stand": 767,
    "gan": 768,
    "ded": 769,
    "work": 770,
    "very": 771,
    "set": 772,
    "oci": 773,
    "xim": 774,
    "ack": 775,
    "particul": 776,
    "under": 777,
    "decision": 778,
    "depen": 779,
    "Pl": 780,
    "ven": 781,
    "information": 782,
    "fety": 783,
    "customer": 784,
    "30": 785,
    "eas": 786,
    "between": 787,
    "expec": 788,
    "chas": 789,
    "some": 790,
    "techn": 791,
    "most": 792,
    "itu": 793,
    "cri": 794,
    "over": 795,
    "how": 796,
    "x0": 797,
    "ong": 798,
    "gn": 799,
    "lab": 800,
    "distribution": 801,
    "devel": 802,
    "40": 803,
    "trans": 804,
    "Section": 805,
    "ght": 806,
    "fun": 807,
    "100": 808,
    "multi": 809,
    "ished": 810,
    "import": 811,
    "larg": 812,
    "estim": 813,
    "ep": 814,
    "revi": 815,
    "pol": 816,
    "organ": 817,
    "cl": 818,
    "same": 819,
    "rate": 820,
    "pon": 821,
    "ade": 822,
    "equ": 823,
    "16": 824,
    "what": 825,
    "cre": 826,
    "96": 827,
    "tical": 828,
    "suppli": 829,
    "abl": 830,
    "sp": 831,
    "problem": 832,
    "cycle": 833,
    "gener": 834,
    "cep": 835,
    "17": 836,
    "schedu": 837,
    "do": 838,
    "atis": 839,
    "dic": 840,
    "tern": 841,
    "possi": 842,
    "divi": 843,
    "##a": 844,
    "##b": 845,
    "##c": 846,
    "##d": 847,
    "##e": 848,
    "##f": 849,
    "##g": 850,
    "##h": 851,
    "##i": 852,
    "##j": 853,
    "##k": 854,
    "##l": 855,
    "##m": 856,
    "##n": 857,
    "##o": 858,
    "##p": 859,
    "##q": 860,
    "##r": 861,
    "##s": 862,
    "##t": 863,
    "##u": 864,
    "##v": 865,
    "##w": 866,
    "##x": 867,
    "##y": 868,
    "##z": 869,
    "##A": 870,
    "##B": 871,
    "##C": 872,
    "##D": 873,
    "##E": 874,
    "##F": 875,
    "##G": 876,
    "##H": 877,
    "##I": 878,
    "##J": 879,
    "##K": 880,
    "##L": 881,
    "##M": 882,
    "##N": 883,
    "##O": 884,
    "##P": 885,
    "##Q": 886,
    "##R": 887,
    "##S": 888,
    "##T": 889,
    "##U": 890,
    "##V": 891,
    "##W": 892,
    "##X": 893,
    "##Y": 894,
    "##Z": 895,
    "##0": 896,
    "##1": 897,
    "##2": 898,
    "##3": 899,
    "##4": 900,
    "##5": 901,
    "##6": 902,
    "##7": 903,
    "##8": 904,
    "##9": 905,
    "##!": 906,
    "##\"": 907,
    "###": 908,
    "##$": 909,
    "##%": 910,
    "##&": 911,
    "##'": 912,
    "##(": 913,
    "##)": 914,
    "##*": 915,
    "##+": 916,
    "##,": 917,
    "##-": 918,
    "##.": 919,
    "##/": 920,
    "##:": 921,
    "##;": 922,
    "##<": 923,
    "##=": 924,
    "##>": 925,
    "##?": 926,
    "##@": 927,
    "##[": 928,
    "##\\": 929,
    "##]": 930,
    "##^": 931,
    "##_": 932,
    "##`": 933,
    "##{": 934,
    "##|": 935,
    "##}": 936,
    "##~": 937,
    "##\u0013": 938,
    "##": 939,
    "##": 940,
    "##¡": 941,
    "##¢": 942,
    "##§": 943,
    "##©": 944,
    "##­": 945,
    "##®": 946,
    "##±": 947,
    "##¶": 948,
    "##·": 949,
    "##É": 950,
    "##Ö": 951,
    "##×": 952,
    "##á": 953,
    "##ä": 954,
    "##ç": 955,
    "##é": 956,
    "##ö": 957,
    "##÷": 958,
    "##ü": 959,
    "##ˆ": 960,
    "##́": 961,
    "##̃": 962,
    "##̄": 963,
    "##̸": 964,
    "##α": 965,
    "##β": 966,
    "##γ": 967,
    "##δ": 968,
    "##ε": 969,
    "##θ": 970,
    "##μ": 971,
    "##π": 972,
    "##σ": 973,
    "##τ": 974,
    "##φ": 975,
    "##ω": 976,
    "##–": 977,
    "##—": 978,
    "##“": 979,
    "##”": 980,
    "##†": 981,
    "##‡": 982,
    "##•": 983,
    "##′": 984,
    "##›": 985,
    "##⁄": 986,
    "##⃝": 987,
    "##→": 988,
    "##↕": 989,
    "##∂": 990,
    "##∑": 991,
    "##−": 992,
    "##∗": 993,
    "##√": 994,
    "##∝": 995,
    "##∞": 996,
    "##∫": 997,
    "##∼": 998,
    "##≈": 999,
    "##≡": 1000,
    "##≤": 1001,
    "##≥": 1002,
    "##≪": 1003,
    "##⎛": 1004,
    "##⎝": 1005,
    "##⎞": 1006,
    "##⎠": 1007,
    "##⎡": 1008,
    "##⎢": 1009,
    "##⎣": 1010,
    "##⎤": 1011,
    "##⎥": 1012,
    "##⎦": 1013,
    "##⎧": 1014,
    "##⎨": 1015,
    "##⎩": 1016,
    "##⎪": 1017,
    "##⎫": 1018,
    "##⎬": 1019,
    "##⎭": 1020,
    "##⏐": 1021,
    "##■": 1022,
    "##❏": 1023,
    "##❒": 1024,
    "##❖": 1025,
    "##➔": 1026,
    "##➜": 1027,
    "##➝": 1028,
    "##➡": 1029,
    "##➢": 1030,
    "##": 1031,
    "##": 1032,
    "##": 1033,
    "##": 1034,
    "##": 1035,
    "##": 1036,
    "##in": 1037,
    "##th": 1038,
    "##an": 1039,
    "##er": 1040,
    "##or": 1041,
    "##on": 1042,
    "##en": 1043,
    "##ti": 1044,
    "##the": 1045,
    "##al": 1046,
    "##of": 1047,
    "##ar": 1048,
    "##ing": 1049,
    "##re": 1050,
    "##to": 1051,
    "##ro": 1052,
    "##and": 1053,
    "##em": 1054,
    "##ed": 1055,
    "##es": 1056,
    "##st": 1057,
    "##at": 1058,
    "##ou": 1059,
    "##is": 1060,
    "##ent": 1061,
    "##ec": 1062,
    "##tion": 1063,
    "##it": 1064,
    "##ac": 1065,
    "##as": 1066,
    "##ic": 1067,
    "##pl": 1068,
    "##du": 1069,
    "##pro": 1070,
    "##el": 1071,
    "##ag": 1072,
    "##us": 1073,
    "##vent": 1074,
    "##co": 1075,
    "##ventor": 1076,
    "##ventory": 1077,
    "##il": 1078,
    "##ch": 1079,
    "##duc": 1080,
    "##Th": 1081,
    "##In": 1082,
    "##ur": 1083,
    "##qu": 1084,
    "##ation": 1085,
    "##su": 1086,
    "##ow": 1087,
    "##et": 1088,
    "##for": 1089,
    "##si": 1090,
    "##ab": 1091,
    "##ev": 1092,
    "##un": 1093,
    "##ol": 1094,
    "##that": 1095,
    "##ly": 1096,
    "##me": 1097,
    "##per": 1098,
    "##ex": 1099,
    "##le": 1100,
    "##con": 1101,
    "##ve": 1102,
    "##are": 1103,
    "##ap": 1104,
    "##di": 1105,
    "##ith": 1106,
    "##19": 1107,
    "##wh": 1108,
    "##be": 1109,
    "##anag": 1110,
    "##inventory": 1111,
    "##ord": 1112,
    "##sh": 1113,
    "##with": 1114,
    "##ri": 1115,
    "##ement": 1116,
    "##produc": 1117,
    "##mp": 1118,
    "##00": 1119,
    "##ul": 1120,
    "##The": 1121,
    "##tic": 1122,
    "##Inventory": 1123,
    "##ad": 1124,
    "##ems": 1125,
    "##od": 1126,
    "##anagement": 1127,
    "##emand": 1128,
    "##am": 1129,
    "##ers": 1130,
    "##ts": 1131,
    "##ear": 1132,
    "##ate": 1133,
    "##Pro": 1134,
    "##vi": 1135,
    "##lo": 1136,
    "##toc": 1137,
    "##ity": 1138,
    "##po": 1139,
    "##ig": 1140,
    "##__": 1141,
    "##oun": 1142,
    "##ess": 1143,
    "##ce": 1144,
    "##ha": 1145,
    "##ma": 1146,
    "##ter": 1147,
    "##im": 1148,
    "##ver": 1149,
    "##age": 1150,
    "##demand": 1151,
    "##time": 1152,
    "##ment": 1153,
    "##stoc": 1154,
    "##no": 1155,
    "##ppl": 1156,
    "##ish": 1157,
    "##ere": 1158,
    "##alu": 1159,
    "##if": 1160,
    "##yst": 1161,
    "##bu": 1162,
    "##um": 1163,
    "##Produc": 1164,
    "##ta": 1165,
    "##evel": 1166,
    "##act": 1167,
    "##par": 1168,
    "##oul": 1169,
    "##ef": 1170,
    "##tr": 1171,
    "##able": 1172,
    "##res": 1173,
    "##ies": 1174,
    "##10": 1175,
    "##se": 1176,
    "##Management": 1177,
    "##ations": 1178,
    "##order": 1179,
    "##its": 1180,
    "##can": 1181,
    "##oth": 1182,
    "##ould": 1183,
    "##by": 1184,
    "##items": 1185,
    "##valu": 1186,
    "##sts": 1187,
    "##comp": 1188,
    "##this": 1189,
    "##iz": 1190,
    "##eg": 1191,
    "##tim": 1192,
    "##eca": 1193,
    "##ated": 1194,
    "##fro": 1195,
    "##eri": 1196,
    "##syst": 1197,
    "##enti": 1198,
    "##mo": 1199,
    "##pec": 1200,
    "##cost": 1201,
    "##ally": 1202,
    "##tro": 1203,
    "##199": 1204,
    "##ati": 1205,
    "##ill": 1206,
    "##als": 1207,
    "##fi": 1208,
    "##we": 1209,
    "##you": 1210,
    "##anti": 1211,
    "##not": 1212,
    "##str": 1213,
    "##any": 1214,
    "##cus": 1215,
    "##from": 1216,
    "##ea": 1217,
    "##all": 1218,
    "##pply": 1219,
    "##ort": 1220,
    "##inc": 1221,
    "##ents": 1222,
    "##coun": 1223,
    "##pr": 1224,
    "##ure": 1225,
    "##op": 1226,
    "##com": 1227,
    "##oc": 1228,
    "##ted": 1229,
    "##min": 1230,
    "##ann": 1231,
    "##id": 1232,
    "##ty": 1233,
    "##item": 1234,
    "##use": 1235,
    "##ach": 1236,
    "##dis": 1237,
    "##usin": 1238,
    "##qui": 1239,
    "##ple": 1240,
    "##plen": 1241,
    "##stock": 1242,
    "##ase": 1243,
    "##peri": 1244,
    "##low": 1245,
    "##one": 1246,
    "##will": 1247,
    "##plenish": 1248,
    "##have": 1249,
    "##our": 1250,
    "##quanti": 1251,
    "##form": 1252,
    "##istic": 1253,
    "##so": 1254,
    "##fact": 1255,
    "##level": 1256,
    "##tions": 1257,
    "##sa": 1258,
    "##lu": 1259,
    "##pen": 1260,
    "##ods": 1261,
    "##ely": 1262,
    "##dec": 1263,
    "##ang": 1264,
    "##isi": 1265,
    "##ting": 1266,
    "##____": 1267,
    "##busin": 1268,
    "##ore": 1269,
    "##ant": 1270,
    "##ice": 1271,
    "##costs": 1272,
    "##Product": 1273,
    "##out": 1274,
    "##management": 1275,
    "##ne": 1276,
    "##value": 1277,
    "##bl": 1278,
    "##mat": 1279,
    "##ot": 1280,
    "##Wh": 1281,
    "##Ch": 1282,
    "##rec": 1283,
    "##ff": 1284,
    "##ead": 1285,
    "##300": 1286,
    "##product": 1287,
    "##wor": 1288,
    "##king": 1289,
    "##der": 1290,
    "##cur": 1291,
    "##appro": 1292,
    "##198": 1293,
    "##var": 1294,
    "##tom": 1295,
    "##ties": 1296,
    "##replenish": 1297,
    "##de": 1298,
    "##fin": 1299,
    "##20": 1300,
    "##erv": 1301,
    "##ast": 1302,
    "##stri": 1303,
    "##iv": 1304,
    "##ra": 1305,
    "##other": 1306,
    "##om": 1307,
    "##ech": 1308,
    "##og": 1309,
    "##igh": 1310,
    "##production": 1311,
    "##sting": 1312,
    "##ance": 1313,
    "##ility": 1314,
    "##rou": 1315,
    "##arg": 1316,
    "##system": 1317,
    "##Su": 1318,
    "##rel": 1319,
    "##proc": 1320,
    "##odel": 1321,
    "##go": 1322,
    "##more": 1323,
    "##ks": 1324,
    "##ying": 1325,
    "##trol": 1326,
    "##thes": 1327,
    "##hou": 1328,
    "##materi": 1329,
    "##anu": 1330,
    "##anning": 1331,
    "##tive": 1332,
    "##tw": 1333,
    "##ber": 1334,
    "##11": 1335,
    "##num": 1336,
    "##This": 1337,
    "##ence": 1338,
    "##Con": 1339,
    "##used": 1340,
    "##supply": 1341,
    "##yp": 1342,
    "##units": 1343,
    "##ments": 1344,
    "##ke": 1345,
    "##ding": 1346,
    "##ain": 1347,
    "##det": 1348,
    "##requi": 1349,
    "##loc": 1350,
    "##ail": 1351,
    "##tot": 1352,
    "##serv": 1353,
    "##int": 1354,
    "##ass": 1355,
    "##ob": 1356,
    "##has": 1357,
    "##ection": 1358,
    "##business": 1359,
    "##whic": 1360,
    "##should": 1361,
    "##pre": 1362,
    "##ors": 1363,
    "##quantity": 1364,
    "##vari": 1365,
    "##mon": 1366,
    "##li": 1367,
    "##each": 1368,
    "##bas": 1369,
    "##Equ": 1370,
    "##replenishment": 1371,
    "##stribu": 1372,
    "##earch": 1373,
    "##arehou": 1374,
    "##12": 1375,
    "##ical": 1376,
    "##Res": 1377,
    "##custom": 1378,
    "##EO": 1379,
    "##fir": 1380,
    "##ut": 1381,
    "##reas": 1382,
    "##dat": 1383,
    "##hi": 1384,
    "##Ex": 1385,
    "##ys": 1386,
    "##ust": 1387,
    "##sal": 1388,
    "##50": 1389,
    "##Production": 1390,
    "##unit": 1391,
    "##model": 1392,
    "##decisi": 1393,
    "##ss": 1394,
    "##13": 1395,
    "##which": 1396,
    "##when": 1397,
    "##mar": 1398,
    "##foreca": 1399,
    "##ay": 1400,
    "##Oper": 1401,
    "##sim": 1402,
    "##where": 1403,
    "##ermin": 1404,
    "##Co": 1405,
    "##oper": 1406,
    "##meth": 1407,
    "##yc": 1408,
    "##enc": 1409,
    "##year": 1410,
    "##red": 1411,
    "##own": 1412,
    "##sol": 1413,
    "##pres": 1414,
    "##imp": 1415,
    "##total": 1416,
    "##est": 1417,
    "##pos": 1418,
    "##may": 1419,
    "##ety": 1420,
    "##eff": 1421,
    "##fol": 1422,
    "##distribu": 1423,
    "##sel": 1424,
    "##ous": 1425,
    "##nal": 1426,
    "##ir": 1427,
    "##art": 1428,
    "##ans": 1429,
    "##also": 1430,
    "##anufact": 1431,
    "##spec": 1432,
    "##gh": 1433,
    "##ci": 1434,
    "##diff": 1435,
    "##ew": 1436,
    "##control": 1437,
    "##bet": 1438,
    "##15": 1439,
    "##ther": 1440,
    "##av": 1441,
    "##EOQ": 1442,
    "##exam": 1443,
    "##echn": 1444,
    "##ational": 1445,
    "##Research": 1446,
    "##ling": 1447,
    "##ons": 1448,
    "##up": 1449,
    "##period": 1450,
    "##ateg": 1451,
    "##products": 1452,
    "##chang": 1453,
    "##follow": 1454,
    "##stor": 1455,
    "##lead": 1456,
    "##would": 1457,
    "##sul": 1458,
    "##pur": 1459,
    "##car": 1460,
    "##54": 1461,
    "##It": 1462,
    "##ine": 1463,
    "##ever": 1464,
    "##arehouse": 1465,
    "##ves": 1466,
    "##ality": 1467,
    "##number": 1468,
    "##fac": 1469,
    "##siz": 1470,
    "##ten": 1471,
    "##probl": 1472,
    "##plac": 1473,
    "##apter": 1474,
    "##St": 1475,
    "##ins": 1476,
    "##two": 1477,
    "##process": 1478,
    "##such": 1479,
    "##consi": 1480,
    "##determin": 1481,
    "##there": 1482,
    "##than": 1483,
    "##count": 1484,
    "##ip": 1485,
    "##Demand": 1486,
    "##anufactur": 1487,
    "##Supply": 1488,
    "##inter": 1489,
    "##ability": 1490,
    "##ulti": 1491,
    "##29": 1492,
    "##they": 1493,
    "##ating": 1494,
    "##Qu": 1495,
    "##por": 1496,
    "##Equation": 1497,
    "##inv": 1498,
    "##bo": 1499,
    "##ual": 1500,
    "##manag": 1501,
    "##des": 1502,
    "##point": 1503,
    "##giv": 1504,
    "##esses": 1505,
    "##inclu": 1506,
    "##data": 1507,
    "##these": 1508,
    "##systems": 1509,
    "##materials": 1510,
    "##ey": 1511,
    "##resul": 1512,
    "##istics": 1513,
    "##Un": 1514,
    "##Ess": 1515,
    "##Essenti": 1516,
    "##tain": 1517,
    "##cer": 1518,
    "##ru": 1519,
    "##________": 1520,
    "##Re": 1521,
    "##fore": 1522,
    "##ee": 1523,
    "##cap": 1524,
    "##ble": 1525,
    "##Essentials": 1526,
    "##provi": 1527,
    "##cedu": 1528,
    "##ycle": 1529,
    "##SK": 1530,
    "##Jour": 1531,
    "##typ": 1532,
    "##ization": 1533,
    "##ving": 1534,
    "##but": 1535,
    "##SKU": 1536,
    "##IN": 1537,
    "##Part": 1538,
    "##goods": 1539,
    "##their": 1540,
    "##econ": 1541,
    "##end": 1542,
    "##sales": 1543,
    "##ard": 1544,
    "##ecast": 1545,
    "##formation": 1546,
    "##For": 1547,
    "##pri": 1548,
    "##Fig": 1549,
    "##service": 1550,
    "##sum": 1551,
    "##ph": 1552,
    "##inventor": 1553,
    "##ds": 1554,
    "##case": 1555,
    "##throu": 1556,
    "##Cha": 1557,
    "##verage": 1558,
    "##planning": 1559,
    "##differ": 1560,
    "##betwe": 1561,
    "##Not": 1562,
    "##Journal": 1563,
    "##suppl": 1564,
    "##example": 1565,
    "##ener": 1566,
    "##edu": 1567,
    "##If": 1568,
    "##your": 1569,
    "##procedu": 1570,
    "##cont": 1571,
    "##Al": 1572,
    "##03": 1573,
    "##000": 1574,
    "##reduc": 1575,
    "##25": 1576,
    "##ticul": 1577,
    "##only": 1578,
    "##into": 1579,
    "##ici": 1580,
    "##using": 1581,
    "##olog": 1582,
    "##ative": 1583,
    "##02": 1584,
    "##anal": 1585,
    "##reg": 1586,
    "##must": 1587,
    "##compl": 1588,
    "##ates": 1589,
    "##ary": 1590,
    "##mark": 1591,
    "##pe": 1592,
    "##chedu": 1593,
    "##kn": 1594,
    "##chain": 1595,
    "##14": 1596,
    "##then": 1597,
    "##err": 1598,
    "##comm": 1599,
    "##warehouse": 1600,
    "##forecast": 1601,
    "##manufactur": 1602,
    "##discus": 1603,
    "##ect": 1604,
    "##hel": 1605,
    "##ecause": 1606,
    "##stand": 1607,
    "##gan": 1608,
    "##ded": 1609,
    "##work": 1610,
    "##very": 1611,
    "##set": 1612,
    "##oci": 1613,
    "##xim": 1614,
    "##ack": 1615,
    "##particul": 1616,
    "##under": 1617,
    "##decision": 1618,
    "##depen": 1619,
    "##Pl": 1620,
    "##ven": 1621,
    "##information": 1622,
    "##fety": 1623,
    "##customer": 1624,
    "##30": 1625,
    "##eas": 1626,
    "##between": 1627,
    "##expec": 1628,
    "##chas": 1629,
    "##some": 1630,
    "##techn": 1631,
    "##most": 1632,
    "##itu": 1633,
    "##cri": 1634,
    "##over": 1635,
    "##how": 1636,
    "##x0": 1637,
    "##ong": 1638,
    "##gn": 1639,
    "##lab": 1640,
    "##distribution": 1641,
    "##devel": 1642,
    "##40": 1643,
    "##trans": 1644,
    "##Section": 1645,
    "##ght": 1646,
    "##fun": 1647,
    "##100": 1648,
    "##multi": 1649,
    "##ished": 1650,
    "##import": 1651,
    "##larg": 1652,
    "##estim": 1653,
    "##ep": 1654,
    "##revi": 1655,
    "##pol": 1656,
    "##organ": 1657,
    "##cl": 1658,
    "##same": 1659,
    "##rate": 1660,
    "##pon": 1661,
    "##ade": 1662,
    "##equ": 1663,
    "##16": 1664,
    "##what": 1665,
    "##cre": 1666,
    "##96": 1667,
    "##tical": 1668,
    "##suppli": 1669,
    "##abl": 1670,
    "##sp": 1671,
    "##problem": 1672,
    "##cycle": 1673,
    "##gener": 1674,
    "##cep": 1675,
    "##17": 1676,
    "##schedu": 1677,
    "##do": 1678,
    "##atis": 1679,
    "##dic": 1680,
    "##tern": 1681,
    "##possi": 1682,
    "##divi": 1683
  },
  "merges": [
    [
      ".",
      "</w>"
    ],
    [
      "e",
      "</w>"
    ],
    [
      "s",
      "</w>"
    ],
    [
      "i",
      "n"
    ],
    [
      "t",
      "h"
    ],
    [
      "t",
      "</w>"
    ],
    [
      "a",
      "n"
    ],
    [
      "e",
      "r"
    ],
    [
      "d",
      "</w>"
    ],
    [
      "o",
      "r"
    ],
    [
      "o",
      "n"
    ],
    [
      "e",
      "n"
    ],
    [
      "t",
      "i"
    ],
    [
      "y",
      "</w>"
    ],
    [
      ",",
      "</w>"
    ],
    [
      "th",
      "e</w>"
    ],
    [
      "a",
      "l"
    ],
    [
      "o",
      "f"
    ],
    [
      "a",
      "r"
    ],
    [
      "in",
      "g"
    ],
    [
      "r",
      "e"
    ],
    [
      "t",
      "o"
    ],
    [
      "of",
      "</w>"
    ],
    [
      "on",
      "</w>"
    ],
    [
      "r",
      "o"
    ],
    [
      "ing",
      "</w>"
    ],
    [
      "an",
      "d</w>"
    ],
    [
      "e",
      "m"
    ],
    [
      "er",
      "</w>"
    ],
    [
      "e",
      "d</w>"
    ],
    [
      "e",
      "s</w>"
    ],
    [
      "s",
      "t"
    ],
    [
      "0",
      "</w>"
    ],
    [
      "a",
      "t"
    ],
    [
      "o",
      "u"
    ],
    [
      "i",
      "s</w>"
    ],
    [
      "a",
      "</w>"
    ],
    [
      "en",
      "t"
    ],
    [
      "e",
      "c"
    ],
    [
      ")",
      "</w>"
    ],
    [
      "(",
      "</w>"
    ],
    [
      "ti",
      "on</w>"
    ],
    [
      "i",
      "t"
    ],
    [
      "a",
      "c"
    ],
    [
      "to",
      "</w>"
    ],
    [
      "in",
      "</w>"
    ],
    [
      "or",
      "</w>"
    ],
    [
      "al",
      "</w>"
    ],
    [
      "e",
      "s"
    ],
    [
      "a",
      "s"
    ],
    [
      "i",
      "c"
    ],
    [
      "p",
      "l"
    ],
    [
      "i",
      "s"
    ],
    [
      "d",
      "u"
    ],
    [
      "1",
      "</w>"
    ],
    [
      "p",
      "ro"
    ],
    [
      "e",
      "l"
    ],
    [
      "en",
      "t</w>"
    ],
    [
      "a",
      "g"
    ],
    [
      "u",
      "s"
    ],
    [
      "2",
      "</w>"
    ],
    [
      "v",
      "ent"
    ],
    [
      "c",
      "o"
    ],
    [
      "vent",
      "or"
    ],
    [
      "a",
      "t</w>"
    ],
    [
      "-",
      "</w>"
    ],
    [
      "ventor",
      "y</w>"
    ],
    [
      "3",
      "</w>"
    ],
    [
      "i",
      "l"
    ],
    [
      "c",
      "h"
    ],
    [
      "du",
      "c"
    ],
    [
      "T",
      "h"
    ],
    [
      "an",
      "</w>"
    ],
    [
      "I",
      "n"
    ],
    [
      "4",
      "</w>"
    ],
    [
      "u",
      "r"
    ],
    [
      "q",
      "u"
    ],
    [
      "a",
      "tion</w>"
    ],
    [
      "5",
      "</w>"
    ],
    [
      "ti",
      "on"
    ],
    [
      "s",
      "u"
    ],
    [
      "=",
      "</w>"
    ],
    [
      "l",
      "</w>"
    ],
    [
      "o",
      "w"
    ],
    [
      "e",
      "t"
    ],
    [
      "f",
      "or</w>"
    ],
    [
      "s",
      "i"
    ],
    [
      "a",
      "b"
    ],
    [
      "e",
      "v"
    ],
    [
      "6",
      "</w>"
    ],
    [
      "k",
      "</w>"
    ],
    [
      "u",
      "n"
    ],
    [
      "o",
      "l"
    ],
    [
      "th",
      "at</w>"
    ],
    [
      "en",
      "</w>"
    ],
    [
      "/",
      "</w>"
    ],
    [
      "l",
      "y</w>"
    ],
    [
      "m",
      "e</w>"
    ],
    [
      "o",
      "</w>"
    ],
    [
      "f",
      "or"
    ],
    [
      "p",
      "er"
    ],
    [
      "e",
      "x"
    ],
    [
      "l",
      "e</w>"
    ],
    [
      "c",
      "on"
    ],
    [
      "v",
      "e</w>"
    ],
    [
      "a",
      "s</w>"
    ],
    [
      "ar",
      "e</w>"
    ],
    [
      "m",
      "</w>"
    ],
    [
      "a",
      "p"
    ],
    [
      "d",
      "i"
    ],
    [
      "h",
      "</w>"
    ],
    [
      "i",
      "th"
    ],
    [
      "1",
      "9"
    ],
    [
      "7",
      "</w>"
    ],
    [
      "w",
      "h"
    ],
    [
      "b",
      "e</w>"
    ],
    [
      "an",
      "ag"
    ],
    [
      "8",
      "</w>"
    ],
    [
      "in",
      "ventory</w>"
    ],
    [
      "$",
      "</w>"
    ],
    [
      "or",
      "d"
    ],
    [
      "em",
      "</w>"
    ],
    [
      "9",
      "</w>"
    ],
    [
      "s",
      "h"
    ],
    [
      "w",
      "ith"
    ],
    [
      "r",
      "i"
    ],
    [
      "i",
      "t</w>"
    ],
    [
      "em",
      "ent</w>"
    ],
    [
      "pro",
      "duc"
    ],
    [
      "m",
      "p"
    ],
    [
      "a",
      "tion"
    ],
    [
      "0",
      "0</w>"
    ],
    [
      "u",
      "l"
    ],
    [
      "A",
      "</w>"
    ],
    [
      "Th",
      "e</w>"
    ],
    [
      "ti",
      "c"
    ],
    [
      "s",
      "t</w>"
    ],
    [
      "In",
      "ventory</w>"
    ],
    [
      "a",
      "d"
    ],
    [
      ":",
      "</w>"
    ],
    [
      "–",
      "</w>"
    ],
    [
      "em",
      "s</w>"
    ],
    [
      "th",
      "e"
    ],
    [
      "o",
      "d"
    ],
    [
      "anag",
      "ement</w>"
    ],
    [
      "em",
      "and</w>"
    ],
    [
      "a",
      "m"
    ],
    [
      "er",
      "s</w>"
    ],
    [
      "t",
      "s</w>"
    ],
    [
      "n",
      "</w>"
    ],
    [
      "e",
      "ar"
    ],
    [
      "an",
      "d"
    ],
    [
      "at",
      "e</w>"
    ],
    [
      "r",
      "</w>"
    ],
    [
      "P",
      "ro"
    ],
    [
      "with",
      "</w>"
    ],
    [
      "v",
      "i"
    ],
    [
      "l",
      "o"
    ],
    [
      "to",
      "c"
    ],
    [
      "it",
      "y</w>"
    ],
    [
      "p",
      "o"
    ],
    [
      "i",
      "g"
    ],
    [
      "_",
      "_"
    ],
    [
      "p",
      "</w>"
    ],
    [
      "ou",
      "n"
    ],
    [
      "m",
      "e"
    ],
    [
      "es",
      "s</w>"
    ],
    [
      "c",
      "e</w>"
    ],
    [
      "h",
      "a"
    ],
    [
      "m",
      "a"
    ],
    [
      "t",
      "er"
    ],
    [
      "i",
      "m"
    ],
    [
      "v",
      "er"
    ],
    [
      "ag",
      "e</w>"
    ],
    [
      "d",
      "emand</w>"
    ],
    [
      "ti",
      "me</w>"
    ],
    [
      "m",
      "ent</w>"
    ],
    [
      "+",
      "</w>"
    ],
    [
      "i",
      "</w>"
    ],
    [
      "s",
      "toc"
    ],
    [
      "n",
      "o"
    ],
    [
      "p",
      "pl"
    ],
    [
      "is",
      "h"
    ],
    [
      "ow",
      "</w>"
    ],
    [
      "er",
      "e</w>"
    ],
    [
      "e",
      "d"
    ],
    [
      "al",
      "u"
    ],
    [
      "i",
      "f"
    ],
    [
      "ch",
      "</w>"
    ],
    [
      "y",
      "st"
    ],
    [
      "b",
      "u"
    ],
    [
      "u",
      "m"
    ],
    [
      "Pro",
      "duc"
    ],
    [
      "e",
      "t</w>"
    ],
    [
      "t",
      "a"
    ],
    [
      "ev",
      "el"
    ],
    [
      "ac",
      "t"
    ],
    [
      "p",
      "ar"
    ],
    [
      "Q",
      "</w>"
    ],
    [
      "ou",
      "l"
    ],
    [
      "S",
      "</w>"
    ],
    [
      "e",
      "f"
    ],
    [
      "t",
      "r"
    ],
    [
      "ab",
      "le</w>"
    ],
    [
      "re",
      "s"
    ],
    [
      "i",
      "es</w>"
    ],
    [
      "1",
      "0</w>"
    ],
    [
      "s",
      "e</w>"
    ],
    [
      "E",
      "</w>"
    ],
    [
      "M",
      "anagement</w>"
    ],
    [
      "ation",
      "s</w>"
    ],
    [
      "ord",
      "er</w>"
    ],
    [
      "it",
      "s</w>"
    ],
    [
      "c",
      "an</w>"
    ],
    [
      "o",
      "th"
    ],
    [
      "oul",
      "d</w>"
    ],
    [
      "−",
      "</w>"
    ],
    [
      "b",
      "y</w>"
    ],
    [
      "'",
      "</w>"
    ],
    [
      "it",
      "ems</w>"
    ],
    [
      "v",
      "alu"
    ],
    [
      "st",
      "s</w>"
    ],
    [
      "co",
      "mp"
    ],
    [
      "w",
      "</w>"
    ],
    [
      "th",
      "is</w>"
    ],
    [
      "i",
      "z"
    ],
    [
      "e",
      "g"
    ],
    [
      "ti",
      "m"
    ],
    [
      "ec",
      "a"
    ],
    [
      "at",
      "ed</w>"
    ],
    [
      "f",
      "ro"
    ],
    [
      "er",
      "i"
    ],
    [
      "s",
      "yst"
    ],
    [
      "en",
      "ti"
    ],
    [
      "m",
      "o"
    ],
    [
      "%",
      "</w>"
    ],
    [
      "p",
      "ec"
    ],
    [
      "co",
      "st</w>"
    ],
    [
      "al",
      "ly</w>"
    ],
    [
      "ic",
      "</w>"
    ],
    [
      "t",
      "ro"
    ],
    [
      "19",
      "9"
    ],
    [
      "a",
      "ti"
    ],
    [
      "il",
      "l</w>"
    ],
    [
      "al",
      "s</w>"
    ],
    [
      "f",
      "i"
    ],
    [
      "w",
      "e</w>"
    ],
    [
      "y",
      "ou"
    ],
    [
      "an",
      "ti"
    ],
    [
      "no",
      "t</w>"
    ],
    [
      "st",
      "r"
    ],
    [
      "c",
      "e"
    ],
    [
      "an",
      "y</w>"
    ],
    [
      "c",
      "us"
    ],
    [
      "fro",
      "m</w>"
    ],
    [
      "e",
      "a"
    ],
    [
      "al",
      "l</w>"
    ],
    [
      "ppl",
      "y</w>"
    ],
    [
      "or",
      "t"
    ],
    [
      "in",
      "c"
    ],
    [
      "ent",
      "s</w>"
    ],
    [
      "c",
      "oun"
    ],
    [
      "p",
      "r"
    ],
    [
      "es",
      "s"
    ],
    [
      "t",
      "er</w>"
    ],
    [
      "ur",
      "e</w>"
    ],
    [
      "o",
      "p"
    ],
    [
      "co",
      "m"
    ],
    [
      "o",
      "d</w>"
    ],
    [
      "o",
      "c"
    ],
    [
      "t",
      "ed</w>"
    ],
    [
      "m",
      "in"
    ],
    [
      "an",
      "n"
    ],
    [
      "i",
      "d"
    ],
    [
      "t",
      "y</w>"
    ],
    [
      "it",
      "em</w>"
    ],
    [
      "us",
      "e</w>"
    ],
    [
      "ac",
      "h</w>"
    ],
    [
      "d",
      "is"
    ],
    [
      "x",
      "</w>"
    ],
    [
      "us",
      "in"
    ],
    [
      "qu",
      "i"
    ],
    [
      "T",
      "</w>"
    ],
    [
      "pl",
      "e</w>"
    ],
    [
      "pl",
      "en"
    ],
    [
      "stoc",
      "k</w>"
    ],
    [
      "as",
      "e</w>"
    ],
    [
      "b",
      "e"
    ],
    [
      "per",
      "i"
    ],
    [
      "•",
      "</w>"
    ],
    [
      "l",
      "ow"
    ],
    [
      "on",
      "e</w>"
    ],
    [
      "w",
      "ill</w>"
    ],
    [
      "plen",
      "ish"
    ],
    [
      "ha",
      "ve</w>"
    ],
    [
      "ou",
      "r"
    ],
    [
      "s",
      "e"
    ],
    [
      "qu",
      "anti"
    ],
    [
      "for",
      "m"
    ],
    [
      "ar",
      "e"
    ],
    [
      "L",
      "</w>"
    ],
    [
      "is",
      "tic"
    ],
    [
      "s",
      "o</w>"
    ],
    [
      "f",
      "act"
    ],
    [
      "ar",
      "</w>"
    ],
    [
      "l",
      "evel"
    ],
    [
      "tion",
      "s</w>"
    ],
    [
      "s",
      "a"
    ],
    [
      "l",
      "u"
    ],
    [
      "p",
      "en"
    ],
    [
      "od",
      "s</w>"
    ],
    [
      "el",
      "y</w>"
    ],
    [
      "d",
      "ec"
    ],
    [
      "an",
      "g"
    ],
    [
      "R",
      "</w>"
    ],
    [
      "is",
      "i"
    ],
    [
      "f",
      "</w>"
    ],
    [
      "t",
      "ing</w>"
    ],
    [
      "__",
      "__"
    ],
    [
      "b",
      "usin"
    ],
    [
      "or",
      "e</w>"
    ],
    [
      "an",
      "t</w>"
    ],
    [
      "D",
      "</w>"
    ],
    [
      "ic",
      "e</w>"
    ],
    [
      "co",
      "sts</w>"
    ],
    [
      "Produc",
      "t</w>"
    ],
    [
      "ou",
      "t</w>"
    ],
    [
      "m",
      "anagement</w>"
    ],
    [
      "n",
      "e"
    ],
    [
      "In",
      "</w>"
    ],
    [
      "w",
      "e"
    ],
    [
      "valu",
      "e</w>"
    ],
    [
      "b",
      "l"
    ],
    [
      "m",
      "at"
    ],
    [
      "o",
      "t"
    ],
    [
      "W",
      "h"
    ],
    [
      "C",
      "h"
    ],
    [
      "re",
      "c"
    ],
    [
      "f",
      "f"
    ],
    [
      "ea",
      "d</w>"
    ],
    [
      "3",
      "00</w>"
    ],
    [
      "produc",
      "t</w>"
    ],
    [
      "g",
      "</w>"
    ],
    [
      "w",
      "or"
    ],
    [
      "k",
      "ing</w>"
    ],
    [
      "C",
      "</w>"
    ],
    [
      "ear",
      "</w>"
    ],
    [
      "d",
      "er"
    ],
    [
      "c",
      "ur"
    ],
    [
      "ap",
      "pro"
    ],
    [
      "19",
      "8"
    ],
    [
      "v",
      "ar"
    ],
    [
      "to",
      "m"
    ],
    [
      "ti",
      "es</w>"
    ],
    [
      "re",
      "plenish"
    ],
    [
      "d",
      "e"
    ],
    [
      "b",
      "</w>"
    ],
    [
      "f",
      "in"
    ],
    [
      "2",
      "0"
    ],
    [
      "d",
      "er</w>"
    ],
    [
      "er",
      "v"
    ],
    [
      "as",
      "t</w>"
    ],
    [
      "st",
      "ri"
    ],
    [
      "—",
      "</w>"
    ],
    [
      "i",
      "v"
    ],
    [
      "r",
      "a"
    ],
    [
      "p",
      "er</w>"
    ],
    [
      "M",
      "</w>"
    ],
    [
      "oth",
      "er</w>"
    ],
    [
      "o",
      "m"
    ],
    [
      "ec",
      "h"
    ],
    [
      "?",
      "</w>"
    ],
    [
      "o",
      "g"
    ],
    [
      "ig",
      "h"
    ],
    [
      "produc",
      "tion</w>"
    ],
    [
      ";",
      "</w>"
    ],
    [
      "st",
      "ing</w>"
    ],
    [
      "an",
      "ce</w>"
    ],
    [
      "il",
      "ity</w>"
    ],
    [
      "ro",
      "u"
    ],
    [
      "ar",
      "g"
    ],
    [
      "syst",
      "em</w>"
    ],
    [
      "S",
      "u"
    ],
    [
      "re",
      "l"
    ],
    [
      "you",
      "</w>"
    ],
    [
      "pro",
      "c"
    ],
    [
      "od",
      "el"
    ],
    [
      "P",
      "</w>"
    ],
    [
      "g",
      "o"
    ],
    [
      "m",
      "ore</w>"
    ],
    [
      "k",
      "s</w>"
    ],
    [
      "y",
      "ing</w>"
    ],
    [
      "tro",
      "l</w>"
    ],
    [
      "th",
      "es"
    ],
    [
      "h",
      "ou"
    ],
    [
      "d",
      "e</w>"
    ],
    [
      "mat",
      "eri"
    ],
    [
      "an",
      "u"
    ],
    [
      "al",
      "l"
    ],
    [
      "ann",
      "ing</w>"
    ],
    [
      "ti",
      "ve</w>"
    ],
    [
      "t",
      "w"
    ],
    [
      "b",
      "er</w>"
    ],
    [
      "v",
      "er</w>"
    ],
    [
      "2",
      "0</w>"
    ],
    [
      "1",
      "1</w>"
    ],
    [
      "n",
      "um"
    ],
    [
      "Th",
      "is</w>"
    ],
    [
      "en",
      "ce</w>"
    ],
    [
      "C",
      "on"
    ],
    [
      "us",
      "ed</w>"
    ],
    [
      "su",
      "pply</w>"
    ],
    [
      "y",
      "p"
    ],
    [
      "un",
      "its</w>"
    ],
    [
      "m",
      "ents</w>"
    ],
    [
      "k",
      "e</w>"
    ],
    [
      "d",
      "ing</w>"
    ],
    [
      "a",
      "in</w>"
    ],
    [
      "■",
      "</w>"
    ],
    [
      "d",
      "et"
    ],
    [
      "re",
      "qui"
    ],
    [
      "lo",
      "c"
    ],
    [
      "a",
      "il"
    ],
    [
      "to",
      "t"
    ],
    [
      "s",
      "erv"
    ],
    [
      "in",
      "t</w>"
    ],
    [
      "as",
      "s"
    ],
    [
      "o",
      "b"
    ],
    [
      "h",
      "as</w>"
    ],
    [
      "ec",
      "tion</w>"
    ],
    [
      "busin",
      "ess</w>"
    ],
    [
      "wh",
      "ic"
    ],
    [
      "sh",
      "ould</w>"
    ],
    [
      "p",
      "re"
    ],
    [
      "or",
      "s</w>"
    ],
    [
      "quanti",
      "ty</w>"
    ],
    [
      "var",
      "i"
    ],
    [
      "m",
      "on"
    ],
    [
      "l",
      "i"
    ],
    [
      "e",
      "ach</w>"
    ],
    [
      "b",
      "as"
    ],
    [
      "E",
      "qu"
    ],
    [
      "replenish",
      "ment</w>"
    ],
    [
      "stri",
      "bu"
    ],
    [
      "er",
      "e"
    ],
    [
      "ear",
      "ch</w>"
    ],
    [
      "are",
      "hou"
    ],
    [
      "1",
      "2</w>"
    ],
    [
      "ic",
      "al</w>"
    ],
    [
      "R",
      "es"
    ],
    [
      "cus",
      "tom"
    ],
    [
      "E",
      "O"
    ],
    [
      "fi",
      "r"
    ],
    [
      "u",
      "t"
    ],
    [
      "re",
      "as"
    ],
    [
      "d",
      "at"
    ],
    [
      "h",
      "i"
    ],
    [
      "level",
      "</w>"
    ],
    [
      "E",
      "x"
    ],
    [
      "y",
      "s"
    ],
    [
      "us",
      "t</w>"
    ],
    [
      "s",
      "al"
    ],
    [
      "5",
      "0</w>"
    ],
    [
      "Produc",
      "tion</w>"
    ],
    [
      "un",
      "it</w>"
    ],
    [
      "m",
      "odel"
    ],
    [
      "dec",
      "isi"
    ],
    [
      "s",
      "s"
    ],
    [
      "1",
      "3"
    ],
    [
      "whic",
      "h</w>"
    ],
    [
      "wh",
      "en</w>"
    ],
    [
      "m",
      "ar"
    ],
    [
      "for",
      "eca"
    ],
    [
      "a",
      "y</w>"
    ],
    [
      "O",
      "per"
    ],
    [
      "si",
      "m"
    ],
    [
      "wh",
      "ere</w>"
    ],
    [
      "er",
      "min"
    ],
    [
      "C",
      "o"
    ],
    [
      "o",
      "per"
    ],
    [
      "me",
      "th"
    ],
    [
      "s",
      "o"
    ],
    [
      "re",
      "s</w>"
    ],
    [
      "y",
      "c"
    ],
    [
      "th",
      "</w>"
    ],
    [
      "en",
      "c"
    ],
    [
      "y",
      "ear</w>"
    ],
    [
      "re",
      "d</w>"
    ],
    [
      "ow",
      "n</w>"
    ],
    [
      "s",
      "ol"
    ],
    [
      "p",
      "res"
    ],
    [
      "i",
      "mp"
    ],
    [
      "tot",
      "al</w>"
    ],
    [
      "es",
      "t</w>"
    ],
    [
      "po",
      "s"
    ],
    [
      "ma",
      "y</w>"
    ],
    [
      "et",
      "y</w>"
    ],
    [
      "ef",
      "f"
    ],
    [
      "f",
      "ol"
    ],
    [
      "di",
      "stribu"
    ],
    [
      "r",
      "e</w>"
    ],
    [
      "c",
      "</w>"
    ],
    [
      "s",
      "el"
    ],
    [
      "ou",
      "s</w>"
    ],
    [
      "n",
      "al</w>"
    ],
    [
      "i",
      "r</w>"
    ],
    [
      "ar",
      "t</w>"
    ],
    [
      "an",
      "s"
    ],
    [
      "al",
      "so</w>"
    ],
    [
      "anu",
      "fact"
    ],
    [
      "s",
      "pec"
    ],
    [
      "g",
      "h"
    ],
    [
      "c",
      "i"
    ],
    [
      "di",
      "ff"
    ],
    [
      "u",
      "s</w>"
    ],
    [
      "e",
      "w</w>"
    ],
    [
      "con",
      "trol</w>"
    ],
    [
      "b",
      "et"
    ],
    [
      "1",
      "5</w>"
    ],
    [
      "if",
      "</w>"
    ],
    [
      "th",
      "er</w>"
    ],
    [
      "a",
      "v"
    ],
    [
      "EO",
      "Q</w>"
    ],
    [
      "ex",
      "am"
    ],
    [
      "ech",
      "n"
    ],
    [
      "ation",
      "al</w>"
    ],
    [
      "Res",
      "earch</w>"
    ],
    [
      "l",
      "ing</w>"
    ],
    [
      "g",
      "h</w>"
    ],
    [
      "1",
      "2"
    ],
    [
      "on",
      "s</w>"
    ],
    [
      "u",
      "p</w>"
    ],
    [
      "a",
      "y"
    ],
    [
      "peri",
      "od</w>"
    ],
    [
      "ord",
      "er"
    ],
    [
      "“",
      "</w>"
    ],
    [
      "at",
      "eg"
    ],
    [
      "”",
      "</w>"
    ],
    [
      "produc",
      "ts</w>"
    ],
    [
      "u",
      "</w>"
    ],
    [
      "ch",
      "ang"
    ],
    [
      "fol",
      "low"
    ],
    [
      "st",
      "or"
    ],
    [
      "l",
      "ead</w>"
    ],
    [
      "w",
      "ould</w>"
    ],
    [
      "su",
      "l"
    ],
    [
      "p",
      "ur"
    ],
    [
      "c",
      "ar"
    ],
    [
      "5",
      "4</w>"
    ],
    [
      "I",
      "t</w>"
    ],
    [
      "in",
      "e</w>"
    ],
    [
      "ev",
      "er"
    ],
    [
      "arehou",
      "se</w>"
    ],
    [
      "v",
      "es</w>"
    ],
    [
      "al",
      "ity</w>"
    ],
    [
      "num",
      "ber</w>"
    ],
    [
      "1",
      "0"
    ],
    [
      "l",
      "ow</w>"
    ],
    [
      "z",
      "</w>"
    ],
    [
      "f",
      "ac"
    ],
    [
      "si",
      "z"
    ],
    [
      "t",
      "en"
    ],
    [
      "B",
      "</w>"
    ],
    [
      "v",
      "</w>"
    ],
    [
      "pro",
      "bl"
    ],
    [
      "pl",
      "ac"
    ],
    [
      "ap",
      "ter</w>"
    ],
    [
      "S",
      "t"
    ],
    [
      "in",
      "s</w>"
    ],
    [
      "tw",
      "o</w>"
    ],
    [
      "proc",
      "ess</w>"
    ],
    [
      "l",
      "e"
    ],
    [
      "su",
      "ch</w>"
    ],
    [
      "con",
      "si"
    ],
    [
      "e",
      "st"
    ],
    [
      "det",
      "ermin"
    ],
    [
      "th",
      "ere</w>"
    ],
    [
      "th",
      "an</w>"
    ],
    [
      "coun",
      "t</w>"
    ],
    [
      "i",
      "p"
    ],
    [
      "D",
      "emand</w>"
    ],
    [
      "anufact",
      "ur"
    ],
    [
      "Su",
      "pply</w>"
    ],
    [
      "in",
      "ter"
    ],
    [
      "ev",
      "er</w>"
    ],
    [
      "ab",
      "ility</w>"
    ],
    [
      "ul",
      "ti"
    ],
    [
      "2",
      "9</w>"
    ],
    [
      "the",
      "y</w>"
    ],
    [
      "at",
      "ing</w>"
    ],
    [
      "Q",
      "u"
    ],
    [
      "p",
      "or"
    ],
    [
      "Equ",
      "ation</w>"
    ],
    [
      "in",
      "v"
    ],
    [
      "b",
      "o"
    ],
    [
      "u",
      "al</w>"
    ],
    [
      "ac",
      "h"
    ],
    [
      "m",
      "anag"
    ],
    [
      "d",
      "es"
    ],
    [
      "po",
      "int</w>"
    ],
    [
      "g",
      "iv"
    ],
    [
      "ess",
      "es</w>"
    ],
    [
      "inc",
      "lu"
    ],
    [
      "dat",
      "a</w>"
    ],
    [
      "thes",
      "e</w>"
    ],
    [
      "syst",
      "ems</w>"
    ],
    [
      "materi",
      "als</w>"
    ],
    [
      "e",
      "y</w>"
    ],
    [
      "re",
      "sul"
    ],
    [
      "istic",
      "s</w>"
    ],
    [
      "U",
      "n"
    ],
    [
      "E",
      "ss"
    ],
    [
      "Ess",
      "enti"
    ],
    [
      "J",
      "</w>"
    ],
    [
      "ta",
      "in"
    ],
    [
      "c",
      "er"
    ],
    [
      "r",
      "u"
    ],
    [
      "____",
      "____"
    ],
    [
      "R",
      "e"
    ],
    [
      "for",
      "e</w>"
    ],
    [
      "e",
      "e</w>"
    ],
    [
      "c",
      "ap"
    ],
    [
      "b",
      "le</w>"
    ],
    [
      "Essenti",
      "als</w>"
    ],
    [
      "pro",
      "vi"
    ],
    [
      "Y",
      "</w>"
    ],
    [
      "istic",
      "</w>"
    ],
    [
      "ce",
      "du"
    ],
    [
      "yc",
      "le</w>"
    ],
    [
      "S",
      "K"
    ],
    [
      "J",
      "our"
    ],
    [
      "t",
      "yp"
    ],
    [
      "iz",
      "ation</w>"
    ],
    [
      "v",
      "ing</w>"
    ],
    [
      "bu",
      "t</w>"
    ],
    [
      "SK",
      "U"
    ],
    [
      "I",
      "N"
    ],
    [
      "P",
      "art</w>"
    ],
    [
      "go",
      "ods</w>"
    ],
    [
      "the",
      "ir</w>"
    ],
    [
      "ec",
      "on"
    ],
    [
      "en",
      "d</w>"
    ],
    [
      "sal",
      "es</w>"
    ],
    [
      "ar",
      "d</w>"
    ],
    [
      "ec",
      "ast</w>"
    ],
    [
      "form",
      "ation</w>"
    ],
    [
      "F",
      "or</w>"
    ],
    [
      "p",
      "ri"
    ],
    [
      "F",
      "ig"
    ],
    [
      "serv",
      "ice</w>"
    ],
    [
      "su",
      "m"
    ],
    [
      "p",
      "h"
    ],
    [
      "in",
      "ventor"
    ],
    [
      "d",
      "s</w>"
    ],
    [
      "c",
      "ase</w>"
    ],
    [
      "th",
      "rou"
    ],
    [
      "C",
      "ha"
    ],
    [
      "ver",
      "age</w>"
    ],
    [
      "pl",
      "anning</w>"
    ],
    [
      "diff",
      "er"
    ],
    [
      "bet",
      "we"
    ],
    [
      "N",
      "ot"
    ],
    [
      "Jour",
      "nal</w>"
    ],
    [
      "su",
      "ppl"
    ],
    [
      "exam",
      "ple</w>"
    ],
    [
      "]",
      "</w>"
    ],
    [
      "[",
      "</w>"
    ],
    [
      "F",
      "or"
    ],
    [
      "th",
      "at"
    ],
    [
      "en",
      "er"
    ],
    [
      "e",
      "du"
    ],
    [
      "I",
      "f</w>"
    ],
    [
      "you",
      "r</w>"
    ],
    [
      "pro",
      "cedu"
    ],
    [
      "con",
      "t"
    ],
    [
      "A",
      "l"
    ],
    [
      "0",
      "3</w>"
    ],
    [
      "0",
      "00</w>"
    ],
    [
      "re",
      "duc"
    ],
    [
      "2",
      "5</w>"
    ],
    [
      "tic",
      "ul"
    ],
    [
      "on",
      "ly</w>"
    ],
    [
      "in",
      "to</w>"
    ],
    [
      "ic",
      "i"
    ],
    [
      "us",
      "ing</w>"
    ],
    [
      "ol",
      "og"
    ],
    [
      "ati",
      "ve</w>"
    ],
    [
      "0",
      "2</w>"
    ],
    [
      "u",
      "m</w>"
    ],
    [
      "an",
      "al"
    ],
    [
      "re",
      "g"
    ],
    [
      "m",
      "ust</w>"
    ],
    [
      "com",
      "pl"
    ],
    [
      "at",
      "es</w>"
    ],
    [
      "ar",
      "y</w>"
    ],
    [
      "mar",
      "k"
    ],
    [
      "I",
      "t"
    ],
    [
      "p",
      "e"
    ],
    [
      "ch",
      "edu"
    ],
    [
      "W",
      "</w>"
    ],
    [
      "k",
      "n"
    ],
    [
      "ch",
      "ain</w>"
    ],
    [
      "1",
      "4</w>"
    ],
    [
      "th",
      "en</w>"
    ],
    [
      "er",
      "r"
    ],
    [
      "com",
      "m"
    ],
    [
      "w",
      "arehouse</w>"
    ],
    [
      "for",
      "ecast</w>"
    ],
    [
      "m",
      "anufactur"
    ],
    [
      "dis",
      "cus"
    ],
    [
      "ec",
      "t</w>"
    ],
    [
      "h",
      "el"
    ],
    [
      "eca",
      "use</w>"
    ],
    [
      "G",
      "</w>"
    ],
    [
      "st",
      "and"
    ],
    [
      "g",
      "an"
    ],
    [
      "d",
      "ed</w>"
    ],
    [
      "wor",
      "k</w>"
    ],
    [
      "ver",
      "y</w>"
    ],
    [
      "s",
      "et"
    ],
    [
      "oc",
      "i"
    ],
    [
      "model",
      "</w>"
    ],
    [
      "x",
      "im"
    ],
    [
      "ac",
      "k"
    ],
    [
      "par",
      "ticul"
    ],
    [
      "ou",
      "r</w>"
    ],
    [
      "un",
      "der"
    ],
    [
      "j",
      "</w>"
    ],
    [
      "decisi",
      "on</w>"
    ],
    [
      "de",
      "pen"
    ],
    [
      "P",
      "l"
    ],
    [
      "v",
      "en"
    ],
    [
      "in",
      "formation</w>"
    ],
    [
      "f",
      "ety</w>"
    ],
    [
      "custom",
      "er</w>"
    ],
    [
      "3",
      "0</w>"
    ],
    [
      "e",
      "as"
    ],
    [
      "betwe",
      "en</w>"
    ],
    [
      "ex",
      "pec"
    ],
    [
      "ch",
      "as"
    ],
    [
      "so",
      "me</w>"
    ],
    [
      "t",
      "echn"
    ],
    [
      "mo",
      "st</w>"
    ],
    [
      "it",
      "u"
    ],
    [
      "in",
      "t"
    ],
    [
      "c",
      "ri"
    ],
    [
      "o",
      "ver"
    ],
    [
      "h",
      "ow</w>"
    ],
    [
      "x",
      "0</w>"
    ],
    [
      "stoc",
      "k"
    ],
    [
      "i",
      "r"
    ],
    [
      "I",
      "</w>"
    ],
    [
      "on",
      "g</w>"
    ],
    [
      "g",
      "n"
    ],
    [
      "l",
      "ab"
    ],
    [
      "distribu",
      "tion</w>"
    ],
    [
      "d",
      "evel"
    ],
    [
      "4",
      "0</w>"
    ],
    [
      "tr",
      "ans"
    ],
    [
      "S",
      "ection</w>"
    ],
    [
      "F",
      "</w>"
    ],
    [
      "gh",
      "t</w>"
    ],
    [
      "f",
      "un"
    ],
    [
      "1",
      "00</w>"
    ],
    [
      "m",
      "ulti"
    ],
    [
      "ish",
      "ed</w>"
    ],
    [
      "imp",
      "ort"
    ],
    [
      "o",
      "ver</w>"
    ],
    [
      "l",
      "arg"
    ],
    [
      "es",
      "tim"
    ],
    [
      "e",
      "p</w>"
    ],
    [
      "re",
      "vi"
    ],
    [
      "1",
      "3</w>"
    ],
    [
      "p",
      "ol"
    ],
    [
      "or",
      "gan"
    ],
    [
      "c",
      "l"
    ],
    [
      "sa",
      "me</w>"
    ],
    [
      "r",
      "ate</w>"
    ],
    [
      "p",
      "on"
    ],
    [
      "ad",
      "e</w>"
    ],
    [
      "t",
      "en</w>"
    ],
    [
      "k",
      "e"
    ],
    [
      "e",
      "qu"
    ],
    [
      "ac",
      "t</w>"
    ],
    [
      "1",
      "6</w>"
    ],
    [
      "wh",
      "at</w>"
    ],
    [
      "c",
      "re"
    ],
    [
      "9",
      "6"
    ],
    [
      "tic",
      "al</w>"
    ],
    [
      "suppl",
      "i"
    ],
    [
      "ab",
      "l"
    ],
    [
      "s",
      "p"
    ],
    [
      "probl",
      "em</w>"
    ],
    [
      "c",
      "ycle</w>"
    ],
    [
      "g",
      "ener"
    ],
    [
      "ce",
      "p"
    ],
    [
      "1",
      "7"
    ],
    [
      "s",
      "chedu"
    ],
    [
      "d",
      "o"
    ],
    [
      "ta",
      "in</w>"
    ],
    [
      "ati",
      "s"
    ],
    [
      "d",
      "ic"
    ],
    [
      "ter",
      "n"
    ],
    [
      "pos",
      "si"
    ],
    [
      "di",
      "vi"
    ]
  ]
}